{"<pad>":0,"<bos>":1,"<eos>":2,"!":3,"\"":4,"#":5,"$":6,"%":7,"&":8,"'":9,"(":10,")":11,"*":12,"+":13,",":14,"-":15,".":16,"/":17,"0":18,"1":19,"2":20,"3":21,"4":22,"5":23,"6":24,"7":25,"8":26,"9":27,":":28,";":29,"<":30,"=":31,">":32,"?":33,"@":34,"A":35,"B":36,"C":37,"D":38,"E":39,"F":40,"G":41,"H":42,"I":43,"J":44,"K":45,"L":46,"M":47,"N":48,"O":49,"P":50,"Q":51,"R":52,"S":53,"T":54,"U":55,"V":56,"W":57,"X":58,"Y":59,"Z":60,"[":61,"\\":62,"]":63,"^":64,"_":65,"`":66,"a":67,"b":68,"c":69,"d":70,"e":71,"f":72,"g":73,"h":74,"i":75,"j":76,"k":77,"l":78,"m":79,"n":80,"o":81,"p":82,"q":83,"r":84,"s":85,"t":86,"u":87,"v":88,"w":89,"x":90,"y":91,"z":92,"{":93,"|":94,"}":95,"~":96,"¡":97,"¢":98,"£":99,"¤":100,"¥":101,"¦":102,"§":103,"¨":104,"©":105,"ª":106,"«":107,"¬":108,"®":109,"¯":110,"°":111,"±":112,"²":113,"³":114,"´":115,"µ":116,"¶":117,"·":118,"¸":119,"¹":120,"º":121,"»":122,"¼":123,"½":124,"¾":125,"¿":126,"À":127,"Á":128,"Â":129,"Ã":130,"Ä":131,"Å":132,"Æ":133,"Ç":134,"È":135,"É":136,"Ê":137,"Ë":138,"Ì":139,"Í":140,"Î":141,"Ï":142,"Ð":143,"Ñ":144,"Ò":145,"Ó":146,"Ô":147,"Õ":148,"Ö":149,"×":150,"Ø":151,"Ù":152,"Ú":153,"Û":154,"Ü":155,"Ý":156,"Þ":157,"ß":158,"à":159,"á":160,"â":161,"ã":162,"ä":163,"å":164,"æ":165,"ç":166,"è":167,"é":168,"ê":169,"ë":170,"ì":171,"í":172,"î":173,"ï":174,"ð":175,"ñ":176,"ò":177,"ó":178,"ô":179,"õ":180,"ö":181,"÷":182,"ø":183,"ù":184,"ú":185,"û":186,"ü":187,"ý":188,"þ":189,"ÿ":190,"Ā":191,"ā":192,"Ă":193,"ă":194,"Ą":195,"ą":196,"Ć":197,"ć":198,"Ĉ":199,"ĉ":200,"Ċ":201,"ċ":202,"Č":203,"č":204,"Ď":205,"ď":206,"Đ":207,"đ":208,"Ē":209,"ē":210,"Ĕ":211,"ĕ":212,"Ė":213,"ė":214,"Ę":215,"ę":216,"Ě":217,"ě":218,"Ĝ":219,"ĝ":220,"Ğ":221,"ğ":222,"Ġ":223,"ġ":224,"Ģ":225,"ģ":226,"Ĥ":227,"ĥ":228,"Ħ":229,"ħ":230,"Ĩ":231,"ĩ":232,"Ī":233,"ī":234,"Ĭ":235,"ĭ":236,"Į":237,"į":238,"İ":239,"ı":240,"Ĳ":241,"ĳ":242,"Ĵ":243,"ĵ":244,"Ķ":245,"ķ":246,"ĸ":247,"Ĺ":248,"ĺ":249,"Ļ":250,"ļ":251,"Ľ":252,"ľ":253,"Ŀ":254,"ŀ":255,"Ł":256,"ł":257,"Ń":258,"Ġt":259,"he":260,"Ġa":261,"ou":262,"Ġs":263,"Ġm":264,"in":265,"Ġw":266,"re":267,"ha":268,"nd":269,"Ġthe":270,"Ġb":271,"is":272,"or":273,"Ġf":274,"er":275,"ll":276,"it":277,"on":278,"Ġd":279,"Ġc":280,"es":281,"en":282,"Ġn":283,"Ġl":284,"Ġy":285,"Ġth":286,"ar":287,"Ġh":288,"Ġo":289,"Ġto":290,"Ġyou":291,"Ġp":292,"hat":293,"ĠI":294,"Ġhe":295,"ve":296,"ot":297,"st":298,"Ġand":299,"ow":300,"ing":301,"an":302,"Ġof":303,"om":304,"Ġg":305,"at":306,"Ġbe":307,"se":308,"Ġmy":309,"Ġin":310,"ce":311,"Ġha":312,"le":313,"ay":314,"ld":315,"ir":316,"et":317,"ed":318,"ut":319,"Ġme":320,"im":321,"ith":322,"'s":323,"Ġnot":324,"ch":325,"Ġthat":326,"Ġis":327,"gh":328,"And":329,"Ġfor":330,"ke":331,"Ġu":332,"our":333,"Ġwe":334,"oo":335,"ill":336,"Ġe":337,"her":338,"Ġwith":339,"ent":340,"Ġit":341,"Ġyour":342,"ad":343,"ri":344,"Ġthou":345,"Ġst":346,"'d":347,"Ġk":348,"ome":349,"Ġhis":350,"ght":351,"EN":352,"ord":353,"id":354,"The":355,"as":356,"Ġre":357,"Ġhave":358,"IN":359,"ly":360,"ra":361,"Ġli":362,"Ġhim":363,"ur":364,"Ġthis":365,"al":366,"IO":367,"Ġso":368,"Ġas":369,"Ġde":370,"Ġon":371,"ore":372,"ro":373,"AR":374,"hi":375,"ould":376,"ood":377,"ck":378,"ain":379,"ver":380,"est":381,"Ġthy":382,"Ġsha":383,"ess":384,"ea":385,"Ġdo":386,"Ġwill":387,"am":388,"Ġno":389,"Ġbut":390,"us":391,"and":392,"US":393,"if":394,"Ġse":395,"ge":396,"Th":397,"Ġall":398,"ake":399,"Ġsu":400,"To":401,"Ġher":402,"ru":403,"ion":404,"th":405,"Ġan":406,"ter":407,"ard":408,"Ġlo":409,"han":410,"ell":411,"ear":412,"Ġsp":413,"Ġthee":414,"Ġour":415,"Ġfa":416,"Ġshall":417,"Ġby":418,"UC":419,"il":420,"Ġare":421,"ING":422,"ĠC":423,"rom":424,"Ġne":425,"ho":426,"Ġkn":427,"AN":428,"ĠR":429,"That":430,"Ġv":431,"ER":432,"OR":433,"ast":434,"ct":435,"ous":436,"Ġwhat":437,"ight":438,"Ġsh":439,"ul":440,"ET":441,"Ġ'":442,"ant":443,"ES":444,"Ġup":445,"sel":446,"qu":447,"But":448,"art":449,"Ġgood":450,"row":451,"ine":452,"ath":453,"Ġlord":454,"hich":455,"nt":456,"ust":457,"'ll":458,"one":459,"Ġpr":460,"Ġcom":461,"Ġat":462,"Ġman":463,"What":464,"ĠM":465,"Ġwhe":466,"ĠE":467,"KING":468,"Ġam":469,"end":470,"ic":471,"Ġcon":472,"ble":473,"ry":474,"ong":475,"ie":476,"ive":477,"Ġbl":478,"Ġfrom":479,"ven":480,"ĠG":481,"For":482,"Ġshe":483,"em":484,"Ġgo":485,"are":486,"Ġmore":487,"IC":488,"out":489,"Ġthem":490,"au":491,"Ġwas":492,"oth":493,"other":494,"He":495,"Ġsir":496,"ol":497,"Ġnow":498,"ĠL":499,"Ġhat":500,"ost":501,"Ġif":502,"LO":503,"ind":504,"Ġthere":505,"Ġwould":506,"Ġknow":507,"Ġcan":508,"ers":509,"IUS":510,"ep":511,"self":512,"ARD":513,"ather":514,"fe":515,"ond":516,"res":517,"ate":518,"Ġsay":519,"Ġhere":520,"Ġlove":521,"Ġsw":522,"Ġtheir":523,"Ġbr":524,"pp":525,"Ġor":526,"--":527,"all":528,"ĠS":529,"Ġthan":530,"Ġthen":531,"Ġking":532,"Ġus":533,"ĠO":534,"ĠB":535,"Ġthey":536,"Ġar":537,"od":538,"My":539,"Ġlet":540,"Ġun":541,"ig":542,"Ġwor":543,"ure":544,"ink":545,"ĠH":546,"ort":547,"hy":548,"ĠV":549,"ame":550,"fore":551,"As":552,"Ġmay":553,"el":554,"Ġqu":555,"Ġcome":556,"ook":557,"Whe":558,"ish":559,"LI":560,"Ġwell":561,"KE":562,"ves":563,"Ġj":564,"Ġone":565,"Ġhath":566,"irst":567,"You":568,"Ġmake":569,"reat":570,"ak":571,"gain":572,"Ġmust":573,"ound":574,"ng":575,"Ġgra":576,"Ġwere":577,"Ġho":578,"ci":579,"Ġsee":580,"Ġlike":581,"ue":582,"eak":583,"TIO":584,"Ġshould":585,"ity":586,"Ġpro":587,"ĠP":588,"Ġsa":589,"Ġmad":590,"um":591,"Ġpl":592,"Ġfather":593,"RO":594,"AU":595,"Ġhad":596,"Ġdid":597,"pe":598,"ime":599,"Ġupon":600,"ice":601,"ON":602,"Ġtoo":603,"ence":604,"ĠW":605,"ward":606,"ist":607,"Ġdeath":608,"own":609,"man":610,"ose":611,"Ġen":612,"un":613,"IS":614,"ful":615,"nce":616,"Ġr":617,"Ġpo":618,"Ġspeak":619,"de":620,"entle":621,"io":622,"Ġout":623,"pt":624,"Ġwhich":625,"ICH":626,"Ġfri":627,"OL":628,"DU":629,"Ġagain":630,"DUKE":631,"Ġhow":632,"EL":633,"ick":634,"ĠA":635,"Ġtru":636,"Ġheart":637,"Ġyet":638,"Ġhand":639,"CA":640,"Thou":641,"very":642,"ICHARD":643,"ENTIO":644,"With":645,"ign":646,"Ġsome":647,"ance":648,"Ġwho":649,"Which":650,"If":651,"Ġwhen":652,"ies":653,"Ġmar":654,"ire":655,"Ġmine":656,"Ġhon":657,"har":658,"orn":659,"Ġoff":660,"ince":661,"INC":662,"In":663,"ack":664,"ĠY":665,"Ġson":666,"Ġdis":667,"Ġal":668,"'t":669,"We":670,"uch":671,"wn":672,"Ġhea":673,"First":674,"oy":675,"Ġtime":676,"Ġhear":677,"AB":678,"ec":679,"Ġsuch":680,"ness":681,"LA":682,"Ġbrother":683,"Of":684,"Ġblood":685,"ither":686,"Ġab":687,"UE":688,"Why":689,"Ġthese":690,"No":691,"Ġgive":692,"Ġfo":693,"Ġday":694,"ĠII":695,"Ġear":696,"ĠRICHARD":697,"TER":698,"Ġro":699,"ise":700,"Ġex":701,"Ġlife":702,"This":703,"eet":704,"Ġtell":705,"So":706,"Ġlook":707,"Ġthink":708,"UCH":709,"oul":710,"Ġword":711,"Ġey":712,"Ġwhere":713,"ag":714,"age":715,"een":716,"ther":717,"GLO":718,"Ġtake":719,"UCES":720,"Ġfriend":721,"GLOUCES":722,"GLOUCESTER":723,"ef":724,"erv":725,"ady":726,"rown":727,"Ġdes":728,"ings":729,"ave":730,"not":731,"Ġgentle":732,"urse":733,"How":734,"RY":735,"Ġri":736,"ase":737,"QUE":738,"way":739,"INCENTIO":740,"QUEEN":741,"Ġlea":742,"tis":743,"ĠOF":744,"Ġart":745,"Ġmost":746,"Where":747,"Ġhonour":748,"LAN":749,"Ġmuch":750,"Ġsl":751,"Ġwar":752,"Ġfl":753,"urn":754,"Ġmade":755,"ment":756,"Now":757,"Ġhast":758,"Ġtw":759,"Ġfear":760,"ĠT":761,"Ġbet":762,"ENRY":763,"aught":764,"Is":765,"LE":766,"ber":767,"ff":768,"ĠGod":769,"ough":770,"ved":771,"Ġbre":772,"cc":773,"ower":774,"Ġnever":775,"ĠVINCENTIO":776,"Be":777,"ap":778,"igh":779,"ĠK":780,"Ġgreat":781,"Ġfair":782,"Who":783,"ee":784,"tle":785,"Ġmen":786,"orrow":787,"Ġcou":788,"Ġnew":789,"ĠRome":790,"aster":791,"uke":792,"iz":793,"old":794,"ORK":795,"Ġpart":796,"ation":797,"INIUS":798,"ss":799,"ree":800,"ide":801,"Or":802,"Ġcall":803,"ple":804,"Ġany":805,"Ġheaven":806,"Ġad":807,"Ġcomm":808,"It":809,"Your":810,"Ġstand":811,"Ġcannot":812,"Ġtrue":813,"DW":814,"Ġname":815,"Ġbeen":816,"ears":817,"DWARD":818,"Ġcl":819,"Ġpre":820,"Ġsweet":821,",--":822,"Ġdoth":823,"Ġpray":824,"hing":825,"PET":826,"UM":827,"Ġnoble":828,"LUC":829,"MEN":830,"TH":831,"Ġown":832,"Ġple":833,"ass":834,"ĠD":835,"ouse":836,"Ġper":837,"Ay":838,"Come":839,"ull":840,"There":841,"Ġwr":842,"Ġdone":843,"ife":844,"aw":845,"Ġtr":846,"Ġway":847,"Ġother":848,"Ġhead":849,"Ġmean":850,"li":851,"red":852,"When":853,"dward":854,"Ġnor":855,"EO":856,"MEO":857,"Ġsc":858,"Ġsoul":859,"Ġpres":860,"ROMEO":861,"ace":862,"ving":863,"Ġnight":864,"Ġbear":865,"ENIUS":866,"aint":867,"ĠCl":868,"Ġworld":869,"MENENIUS":870,"ger":871,"Ġbefore":872,"ause":873,"Ġboth":874,"Ġqueen":875,"per":876,"Then":877,"aughter":878,"RUCH":879,"ock":880,"Ġchi":881,"Here":882,"PETRUCH":883,"PETRUCHIO":884,"OM":885,"able":886,"Ġvery":887,"Ġdead":888,"TES":889,"By":890,"Ġra":891,"ite":892,"Than":893,"the":894,"Ġke":895,"ab":896,"les":897,"ĠF":898,"Ġdown":899,"to":900,"Ġapp":901,"Ġmyself":902,"Ġcont":903,"GR":904,"HA":905,"Ġwh":906,"Ġrem":907,"ĠLord":908,"Ġarm":909,"Ġthus":910,"IOLAN":911,"ilt":912,"ORIOLAN":913,"ORIOLANUS":914,"CORIOLANUS":915,"Sec":916,"Ġleave":917,"Second":918,"Ġbeing":919,"ction":920,"ĠEdward":921,"Nor":922,"sw":923,"Ġunt":924,"ress":925,"Ġgrace":926,"less":927,"Ġbeg":928,"Ġeyes":929,"BA":930,"land":931,"Ġmother":932,"ran":933,"Ġma":934,"Ġold":935,"Ġim":936,"INA":937,"ĠEDWARD":938,"itiz":939,"itizen":940,"ps":941,"Ġlong":942,"Ġever":943,"ĠMar":944,"Ġlive":945,"Ġchild":946,"Let":947,"me":948,"Ġwife":949,"She":950,"Ġaway":951,"Ġrep":952,"ĠIII":953,"Ġwom":954,"Ġpoor":955,"Ġfriends":956,"come":957,"for":958,"wick":959,"Ġaf":960,"Ġmight":961,"nder":962,"Ġstay":963,"eace":964,"ks":965,"oud":966,"Ġdie":967,"atch":968,"led":969,"ĠJ":970,"Ġru":971,"arwick":972,"Ġcomes":973,"Ġcons":974,"Ġcrown":975,"ows":976,"Ġmany":977,"Ġpe":978,"Tis":979,"hall":980,"ison":981,"Ġle":982,"ĠYORK":983,"lo":984,"uck":985,"iss":986,"Ġhouse":987,"Ġhar":988,"Ġthought":989,"Ġrest":990,"ISAB":991,"ELLA":992,"ISABELLA":993,"ian":994,"erc":995,"Ġcour":996,"RAN":997,"Ġent":998,"Ġlie":999,"che":1000,"Ġset":1001,"JU":1002,"well":1003,"ors":1004,"atter":1005,"LIET":1006,"ONTES":1007,"ĠWarwick":1008,"LEONTES":1009,"JULIET":1010,"Nay":1011,"int":1012,"ittle":1013,"Ġdaughter":1014,"Ġgone":1015,"Ġbetter":1016,"MI":1017,"rant":1018,"ought":1019,"Ġprince":1020,"DY":1021,"His":1022,"Ġtong":1023,"Ġwit":1024,"Ġnothing":1025,"CE":1026,"VOL":1027,"ENCE":1028,"LADY":1029,"BR":1030,"TA":1031,"cl":1032,"ied":1033,"Ġkeep":1034,"Go":1035,"Well":1036,"ces":1037,"ious":1038,"os":1039,"Ġsle":1040,"Ġres":1041,"hard":1042,"Ġnews":1043,"SIC":1044,"ft":1045,"ier":1046,"Ġtri":1047,"Ġmo":1048,"ret":1049,"ont":1050,"Ġthose":1051,"Ġgri":1052,"ool":1053,"une":1054,"SICINIUS":1055,"Not":1056,"Ġlittle":1057,"Ġlords":1058,"Ġagainst":1059,"ford":1060,"Ġbest":1061,"Ġhour":1062,"Ġhence":1063,"ardon":1064,"akes":1065,"lse":1066,"Ġacc":1067,"sed":1068,"Ġface":1069,"ult":1070,"Ġfoll":1071,"On":1072,"ew":1073,"ud":1074,"ark":1075,"Ġyoung":1076,"Ġend":1077,"ork":1078,"Ġthing":1079,"Ġstill":1080,"Ġkind":1081,"ield":1082,"ST":1083,"Ġpri":1084,"Ġpur":1085,"alk":1086,"Thy":1087,"Ġcomp":1088,"LUCIO":1089,"ale":1090,"ins":1091,"ert":1092,"Ġput":1093,"Ġpower":1094,"ĠIV":1095,"ichard":1096,"Ġtwo":1097,"Ġcha":1098,"Ġhimself":1099,"Pro":1100,"iness":1101,"Ġfirst":1102,"Ġpeace":1103,"Ġgu":1104,"Ġelse":1105,"ried":1106,"Ġdear":1107,"cious":1108,"Sir":1109,"ail":1110,"ty":1111,"ason":1112,"hile":1113,"Ġsub":1114,"Ġunto":1115,"ile":1116,"ray":1117,"Ġtill":1118,"Ġsm":1119,"uty":1120,"RI":1121,"ZAB":1122,"ect":1123,"Ġtra":1124,"Ġbid":1125,"Ġback":1126,"Ġdre":1127,"Ġhus":1128,"ETH":1129,"ĠELI":1130,"Ġtherefore":1131,"Ġearth":1132,"Ġwords":1133,"Ġcount":1134,"ZABETH":1135,"ĠELIZABETH":1136,"Have":1137,"band":1138,"ius":1139,"men":1140,"ople":1141,"yal":1142,"Ġfind":1143,"Ġcould":1144,"Ġtongue":1145,"orse":1146,"Ġlady":1147,"Ġthine":1148,"Ġneed":1149,"ĠYork":1150,"HENRY":1151,"get":1152,"tw":1153,"Ġtre":1154,"Ġfell":1155,"enry":1156,"Ġhigh":1157,"Ġforth":1158,"Ġhope":1159,"MER":1160,"St":1161,"lp":1162,"Ġhome":1163,"vere":1164,"eth":1165,"Ġseem":1166,"eech":1167,"ĠRomeo":1168,"Ġhusband":1169,"CL":1170,"Ġduke":1171,"Ġright":1172,"GE":1173,"WAR":1174,"WIC":1175,"fort":1176,"ĠWhat":1177,"rer":1178,"Ġban":1179,"uth":1180,"Ġthough":1181,"ĠVI":1182,"WARWIC":1183,"WARWICK":1184,"UT":1185,"ach":1186,"ix":1187,"Ġmind":1188,"Ġbra":1189,"ister":1190,"Ġche":1191,"Ġchar":1192,"hip":1193,"ĠHENRY":1194,"Ġpeople":1195,"Nurse":1196,"ds":1197,"ged":1198,"ĠCitizen":1199,"ren":1200,"They":1201,"ĠHenry":1202,"HAM":1203,"IAN":1204,"LET":1205,"PU":1206,"eed":1207,"Ġbri":1208,"Ġchan":1209,"Ġlaw":1210,"ĠRichard":1211,"Ġshow":1212,"Ġconf":1213,"Ġhands":1214,"PULET":1215,"EY":1216,"be":1217,"Ġmaster":1218,"Ġwhy":1219,"Ġco":1220,"Ġcause":1221,"Ġgl":1222,"Ġonce":1223,"Ġsaid":1224,"Ġimp":1225,"Good":1226,"MIO":1227,"Shall":1228,"Ġbod":1229,"Ġnone":1230,"ousin":1231,"Ġjoy":1232,"ervant":1233,"All":1234,"bt":1235,"Ġfort":1236,"Ġbring":1237,"Yet":1238,"Ġdou":1239,"ates":1240,"Ġevery":1241,"UCKING":1242,"BRUT":1243,"UCKINGHAM":1244,"BRUTUS":1245,"BRO":1246,"BUCKINGHAM":1247,"From":1248,"TRAN":1249,"iet":1250,"Ġmist":1251,"Ġpass":1252,"ird":1253,"Ġlight":1254,"INGBRO":1255,"ESS":1256,"ĠBOL":1257,"TRANIO":1258,"INGBROKE":1259,"ĠBOLINGBROKE":1260,"Do":1261,"Will":1262,"lt":1263,"vost":1264,"Ġwo":1265,"Ġnat":1266,"Ġthr":1267,"Ġroyal":1268,"swer":1269,"PER":1270,"TIS":1271,"cle":1272,"Ġtears":1273,"its":1274,"Ġcame":1275,"ary":1276,"ĠMAR":1277,"Ġwhose":1278,"Ġplease":1279,"lf":1280,"vy":1281,"ory":1282,"Ġpardon":1283,"roke":1284,"ĠAn":1285,"Cl":1286,"GAR":1287,"NE":1288,"pose":1289,"Ġbes":1290,"Ġboy":1291,"Ġfull":1292,"arry":1293,"Ġheard":1294,"Ġhapp":1295,"Ġdev":1296,"Ġjust":1297,"Ġwrong":1298,"Ġpresent":1299,"ĠMARGAR":1300,"ĠMARGARET":1301,"ATH":1302,"eel":1303,"Ġsince":1304,"Ġmis":1305,"ens":1306,"Ġland":1307,"Ġlast":1308,"Ġere":1309,"Ġstate":1310,"Ġplace":1311,"MIL":1312,"bl":1313,"sand":1314,"Ġmeet":1315,"Ġunder":1316,"Ġkill":1317,"Ġafter":1318,"HOR":1319,"cent":1320,"Ġsorrow":1321,"ition":1322,"Ġcare":1323,"Ġthousand":1324,"esty":1325,"ANGE":1326,"ORD":1327,"Ġhold":1328,"GRE":1329,"ANGELO":1330,"CU":1331,"Our":1332,"Ġhelp":1333,"ARINA":1334,"arence":1335,"Ġwhom":1336,"Ġfollow":1337,"KATH":1338,"day":1339,"Ġfar":1340,"Ġless":1341,"Ġhither":1342,"ceive":1343,"irt":1344,"Ġweep":1345,"Ġshame":1346,"selves":1347,"cius":1348,"Ġenem":1349,"Ġabout":1350,"Ġeye":1351,"KATHARINA":1352,"iol":1353,"Ġfal":1354,"Ġfool":1355,"ons":1356,"Ġpat":1357,"urde":1358,"Ġsun":1359,"Ġanswer":1360,"air":1361,"Ġch":1362,"asure":1363,"Ġfall":1364,"Ġmaid":1365,"LUS":1366,"Un":1367,"Up":1368,"ount":1369,"Ġbus":1370,"Ġcousin":1371,"thy":1372,"ESCA":1373,"Ġhate":1374,"Ġgracious":1375,"Ġgentleman":1376,"ĠKing":1377,"Ġgrief":1378,"ESCALUS":1379,"An":1380,"ject":1381,"ove":1382,"Ġmakes":1383,"Ġinto":1384,"imes":1385,"Ġstri":1386,"Hath":1387,"iv":1388,"ild":1389,"Ġstre":1390,"ĠEng":1391,"Ġwoman":1392,"DUCH":1393,"Ġturn":1394,"Ġhum":1395,"Ġbel":1396,"alt":1397,"Ġdost":1398,"Ġcomfort":1399,"ices":1400,"Ġcoun":1401,"ĠDuke":1402,"Ġcourt":1403,"Ġsleep":1404,"urderer":1405,"DUCHESS":1406,"Lord":1407,"pher":1408,"Ġtalk":1409,"itor":1410,"Ġover":1411,"Ġbody":1412,"morrow":1413,"Ġwilt":1414,"Ġbu":1415,"Ġgr":1416,"ute":1417,"gelo":1418,"deed":1419,"ĠMarcius":1420,"IA":1421,"ience":1422,"Ġi":1423,"ised":1424,"Ġbed":1425,"Ġfault":1426,"Ġatt":1427,"ieve":1428,"Ġprove":1429,"Ġplay":1430,"CAMIL":1431,"ĠClarence":1432,"CAMILLO":1433,"God":1434,"ere":1435,"ily":1436,"Ġsound":1437,"Ġdra":1438,"ans":1439,"omet":1440,"Ġinst":1441,"Ġwel":1442,"ade":1443,"Ġret":1444,"Ġdeed":1445,"Ġthank":1446,"TEN":1447,"Ġser":1448,"Ġbo":1449,"Ġfight":1450,"Ġindeed":1451,"illain":1452,"hold":1453,"Ġvo":1454,"Ġsword":1455,"ĠAngelo":1456,"HORTEN":1457,"Ġfalse":1458,"HORTENS":1459,"FRI":1460,"Sh":1461,"Ġuse":1462,"Ġeven":1463,"Ġsovere":1464,"Ġanother":1465,"Ġgrave":1466,"Ġadv":1467,"Provost":1468,"Ġfellow":1469,"Upon":1470,"HORTENSIO":1471,"FRIAR":1472,",'":1473,"PTIS":1474,"eal":1475,"Ġcur":1476,"Ġhas":1477,"Ġem":1478,"ury":1479,"pect":1480,"BAPTIS":1481,"Ġbanish":1482,"Ġfortune":1483,"BAPTISTA":1484,"CUS":1485,"COM":1486,"TOL":1487,"YCUS":1488,"pl":1489,"pen":1490,"ouch":1491,"Ġmerc":1492,"Ġmatter":1493,"Ġwant":1494,"Ġreven":1495,"Ġass":1496,"Ġsend":1497,"Ġprison":1498,"fect":1499,"AUTOL":1500,"Ġrather":1501,"Ġcountry":1502,"Ġdoubt":1503,"COMINIUS":1504,"AUTOLYCUS":1505,".'":1506,"Are":1507,"Even":1508,"More":1509,"Ġwish":1510,"Ġyears":1511,"Ġreason":1512,"Ġlies":1513,"Ġonly":1514,"ARENCE":1515,"Third":1516,"Ġvirt":1517,"Ġtruth":1518,"Would":1519,"ior":1520,"ms":1521,"of":1522,"rance":1523,"ĠBut":1524,"Ġdan":1525,"Ġpers":1526,"any":1527,"Ġbreath":1528,"Ġarms":1529,"Ġdream":1530,"CLARENCE":1531,"pherd":1532,"BEN":1533,"MAR":1534,"NOR":1535,"dd":1536,"der":1537,"Ġsent":1538,"ener":1539,"Ġgi":1540,"Ġstra":1541,"Ġshalt":1542,"Ġdisc":1543,"VOLIO":1544,"Clown":1545,"Ġbusiness":1546,"BENVOLIO":1547,"Al":1548,"At":1549,"PRO":1550,"SPER":1551,"by":1552,"hed":1553,"Ġsen":1554,"Ġprom":1555,"Ġholy":1556,"Ġenough":1557,"erving":1558,"Ġcommand":1559,"UMIO":1560,"GRUMIO":1561,"PROSPER":1562,"PROSPERO":1563,"ia":1564,"ken":1565,"Ġsea":1566,"Ġwind":1567,"itt":1568,"Ġcra":1569,"Ġlay":1570,"ars":1571,"Ġpity":1572,"ator":1573,"Ġbea":1574,"Ġhang":1575,"Ġstran":1576,"Ġsold":1577,"Ġspir":1578,"Ġfare":1579,"Ġproud":1580,"ĠMurderer":1581,"Ġswear":1582,"Ġcontent":1583,"MERCU":1584,"MERCUTIO":1585,"ike":1586,"Ġdare":1587,"eter":1588,"Ġlives":1589,"Ġdep":1590,"Ġsec":1591,"Ġvillain":1592,"gainst":1593,"ĠKate":1594,"LUCENTIO":1595,"Ġremem":1596,"Ġnature":1597,"Ġwelcome":1598,"POM":1599,"Tw":1600,"com":1601,"unt":1602,"Ġtend":1603,"ham":1604,"Ġfree":1605,"Ġgre":1606,"Ġget":1607,"Ġint":1608,"Ġwithin":1609,"Ġkiss":1610,"ester":1611,"ĠCome":1612,"Ġgods":1613,"Ġsaw":1614,"Ġmadam":1615,"LAND":1616,"Ġhappy":1617,"Ġsovereign":1618,"POMP":1619,"LINA":1620,"PAU":1621,"apt":1622,"Ġserv":1623,"Ġsister":1624,"Ġsomet":1625,"hal":1626,"Ġfoul":1627,"Ġcity":1628,"vers":1629,"Were":1630,"Ġbeseech":1631,"PAULINA":1632,"YORK":1633,"ient":1634,"use":1635,"ery":1636,"Ġden":1637,"Ġyield":1638,"Ġthree":1639,"Ġoath":1640,"Ġyours":1641,"onder":1642,"ague":1643,"Ġbreak":1644,"Ġmeans":1645,"Ġsubject":1646,"gether":1647,"GREMIO":1648,"POMPEY":1649,"NIA":1650,"OLI":1651,"POLI":1652,"XEN":1653,"balt":1654,"ybalt":1655,"ĠNor":1656,"Ġaw":1657,"Ġmer":1658,"Ġwhile":1659,"Ġborn":1660,"Ġthings":1661,"Ġhorse":1662,"anc":1663,"usic":1664,"ANT":1665,"Ġbloody":1666,"Ġlooks":1667,"eft":1668,"UMNIA":1669,"like":1670,"ches":1671,"VOLUMNIA":1672,"POLIXEN":1673,"POLIXENES":1674,"GON":1675,"Her":1676,"rong":1677,"up":1678,"ues":1679,"Ġtem":1680,"Ġwin":1681,"Ġwound":1682,"Ġfire":1683,"enger":1684,"Ġyourself":1685,"Ġsupp":1686,"Ġspo":1687,"Ġfaith":1688,"INGS":1689,"ĠServing":1690,"Ġmaj":1691,"STINGS":1692,"Ġtraitor":1693,"centio":1694,"ĠServingman":1695,"RENCE":1696,"Say":1697,"bs":1698,"broke":1699,"rem":1700,"Ġdru":1701,"Ġlam":1702,"essenger":1703,"ĠLAU":1704,"Ġmark":1705,"Ġcommon":1706,"HASTINGS":1707,"Ġchildren":1708,"ertain":1709,"Ġmistress":1710,"ĠLAURENCE":1711,"BY":1712,"BER":1713,"Ġcond":1714,"Ġbeat":1715,"Ġrequ":1716,"Ġdef":1717,"Ġval":1718,"Ġuncle":1719,"Therefore":1720,"form":1721,"Ġmajesty":1722,"CLI":1723,"FF":1724,"Look":1725,"Was":1726,"Ġaff":1727,"Ġsin":1728,"Ġmet":1729,"Ġlate":1730,"Ġleft":1731,"Ġtold":1732,"Ġsoon":1733,"Ġseen":1734,"Ġsave":1735,"Ġdays":1736,"UMBER":1737,"THUMBER":1738,"Ġwoe":1739,"ĠEngland":1740,"NORTHUMBER":1741,"Ġtender":1742,"CLIFF":1743,"NORTHUMBERLAND":1744,"ID":1745,"Take":1746,"bed":1747,"ever":1748,"ring":1749,"ten":1750,"Ġsight":1751,"Ġmon":1752,"Ġgener":1753,"ides":1754,"idow":1755,"Ġdoes":1756,"Though":1757,"Ġreturn":1758,"Ġmercy":1759,"Ġfarewell":1760,"ac":1761,"dom":1762,"mp":1763,"ĠAN":1764,"hes":1765,"Ġsit":1766,"Ġsad":1767,"rel":1768,"Ġdeep":1769,"ters":1770,"Ġgold":1771,"unes":1772,"Ġmarry":1773,"Ġheavy":1774,"Ġfoot":1775,"Ġwarrant":1776,"ĠJul":1777,"Ġpurpose":1778,"Ġthrough":1779,"Ġdanger":1780,"ĠANNE":1781,"Ah":1782,"Did":1783,"Give":1784,"PR":1785,"aim":1786,"ict":1787,"mer":1788,"so":1789,"und":1790,"vent":1791,"Ġill":1792,"Ġcho":1793,"Ġcold":1794,"Ġnurse":1795,"Ġtogether":1796,"Ġgrow":1797,"ours":1798,"ifford":1799,"Ġsure":1800,"earn":1801,"CAPULET":1802,"ignior":1803,"INCE":1804,"Ġdeser":1805,"ments":1806,"PRINCE":1807,"az":1808,"aid":1809,"ca":1810,"oint":1811,"Ġtimes":1812,"oriol":1813,"ingbroke":1814,"ceed":1815,"Ġwithout":1816,"enty":1817,"Ġask":1818,"ross":1819,"ush":1820,"Ġlost":1821,"arewell":1822,"olingbroke":1823,"Ġpluck":1824,"Ġreport":1825,"Ġliege":1826,"Ġbelieve":1827,"Ġspirit":1828,"ling":1829,"sh":1830,"xt":1831,"Ġair":1832,"Ġage":1833,"outh":1834,"Ġwat":1835,"Ġheir":1836,"ets":1837,"ains":1838,"Ġthyself":1839,"ift":1840,"Ġloss":1841,"ĠMont":1842,"Ġsays":1843,"ĠBolingbroke":1844,"Whose":1845,"One":1846,"Ġstrange":1847,"ALO":1848,"Had":1849,"ial":1850,"no":1851,"ner":1852,"Ġbat":1853,"Ġcry":1854,"Ġlearn":1855,"ced":1856,"Ġsuff":1857,"aking":1858,"Ġears":1859,"Ġhaste":1860,"ĠClifford":1861,"Ġentreat":1862,"Ġdevil":1863,"Ġground":1864,"Should":1865,"Ġperson":1866,"ĠJuliet":1867,"Like":1868,"Wh":1869,"ges":1870,"night":1871,"Ġmur":1872,"ined":1873,"Ġfly":1874,"Ġtoward":1875,"Ġpast":1876,"oman":1877,"let":1878,"Ġfast":1879,"Ġvis":1880,"aud":1881,"ĠLu":1882,"Ġpoint":1883,"Ġfriar":1884,"Ġdisp":1885,"Ġslain":1886,"Ġbetw":1887,"ĠFrance":1888,"ixt":1889,"Ġjustice":1890,"Ġstraight":1891,"Ġremember":1892,"APULET":1893,"FL":1894,"FID":1895,"IZ":1896,"May":1897,"Some":1898,"Ġord":1899,"Ġsil":1900,"ina":1901,"Ġbold":1902,"Ġcurse":1903,"Ġnear":1904,"ution":1905,"Ġstrong":1906,"These":1907,"ĠCAPULET":1908,"ORIZ":1909,"Ġworthy":1910,"Ġquick":1911,"AUFID":1912,"entleman":1913,"Ġtrust":1914,"Ġalone":1915,"Ġdesire":1916,"Ġinstru":1917,"Ġbeauty":1918,"Ġservice":1919,"FLORIZ":1920,"AUFIDIUS":1921,"FLORIZEL":1922,"Can":1923,"SE":1924,"Tell":1925,"VER":1926,"gs":1927,"ning":1928,"ship":1929,"with":1930,"Ġtouch":1931,"Ġfound":1932,"ithe":1933,"ĠIs":1934,"adam":1935,"Ġready":1936,"ION":1937,"Ġbrought":1938,"ured":1939,"Ġposs":1940,"ĠTybalt":1941,"Ġrun":1942,"Ġhard":1943,"Ġenemy":1944,"Ġrevenge":1945,"Ġgeneral":1946,"audio":1947,"!'":1948,"Ha":1949,"ible":1950,"vo":1951,"ĠHere":1952,"Ġwoo":1953,"Ġduty":1954,"enator":1955,"Ġgrant":1956,"Ġinf":1957,"cept":1958,"Ġitself":1959,"amill":1960,"Ġlose":1961,"aunt":1962,"Ġknows":1963,"Ġcanst":1964,"ĠSenator":1965,"inks":1966,"umber":1967,"Ġmarried":1968,"Ġthoughts":1969,"Ġcharge":1970,"Against":1971,"Bec":1972,"CIUS":1973,"RICHARD":1974,"Sp":1975,"cester":1976,"eep":1977,"gu":1978,"lou":1979,"sue":1980,"ua":1981,"ĠYou":1982,"Ġmorn":1983,"Ġwear":1984,"riage":1985,"Ġread":1986,"Ġdeli":1987,"Ġspeed":1988,"Ġquar":1989,"Ġprof":1990,"Ġtwenty":1991,"Ġstands":1992,"BAST":1993,"Shepherd":1994,"ched":1995,"Ġhours":1996,"Ġconfess":1997,"Ġstreng":1998,"SEBAST":1999,"ithee":2000,"SEBASTIAN":2001,"OW":2002,"cess":2003,"ĠN":2004,"Ġmock":2005,"Ġfur":2006,"Ġfore":2007,"Ġfield":2008,"ones":2009,"Ġdiv":2010,"Ġcar":2011,"Ġyouth":2012,"Ġpost":2013,"Ġhell":2014,"ingham":2015,"Ġhalf":2016,"oop":2017,"Thus":2018,"ĠRi":2019,"olk":2020,"fection":2021,"ĠHast":2022,"Ġjud":2023,"ump":2024,"Ġexec":2025,"Ġfearful":2026,"Ġcounsel":2027,"amillo":2028,"BION":2029,"Com":2030,"DEL":2031,"Till":2032,"most":2033,"pare":2034,"Ġter":2035,"Ġmin":2036,"Ġwret":2037,"Ġbos":2038,"Ġpar":2039,"Ġbehold":2040,"Ġinc":2041,"Ġeach":2042,"ads":2043,"Ġrec":2044,"Ġdel":2045,"ĠCoriol":2046,"ols":2047}